[PAD]
[UNK]
[CLS]
[SEP]
[MASK]
!
"
#
$
%
&
'
(
)
*
+
,
-
.
/
0
1
2
3
4
5
6
7
8
9
:
;
<
=
>
?
@
[
\
]
_
`
a
b
c
d
e
f
g
h
i
j
k
l
m
n
o
p
q
r
s
t
u
v
w
x
y
z
|
}
~
·
‐
–
—
’
“
”
•
…
😃
##o
##w
##a
##r
##d
##l
##p
##e
##2
##i
##g
##n
##s
##t
##c
##y
##v
##5
##0
##h
##m
##b
##f
##8
##7
##4
##9
##1
##6
##x
##3
##u
##j
##z
##k
##q
##er
##on
##ed
##in
##al
th
in
##or
##nd
##ig
##ing
##ec
##st
##ti
the
##le
##tion
##la
##an
##en
on
to
and
##ro
##ign
##re
##ut
##ar
##ll
sign
re
##ection
##et
##at
##all
##it
##sh
is
##ic
at
##es
ca
##ter
signal
fla
flash
##ra
##ch
no
ne
##igh
##as
##ou
st
##ad
##ight
rep
inter
##section
cab
intersection
##ss
##ck
ped
inst
##est
all
for
##ce
be
not
##ve
light
##ow
##id
install
##th
of
pm
it
##ur
co
##ent
con
##oo
##is
le
##inet
cabinet
##ir
need
call
he
out
##lace
ch
but
up
red
##urn
tra
ap
##ton
##ri
##ound
##ation
##ver
##ross
##fic
head
wor
work
turn
so
cross
cle
sw
det
##ct
##ide
replace
clean
com
##ffic
##ly
##am
button
traffic
pu
##ock
cor
po
##ay
##ge
are
##ort
detection
mo
##mer
##ard
gre
##ment
##ith
##ast
##ber
that
green
##gra
##ect
pro
with
##bs
##bound
##alk
caller
working
sb
wh
nb
##se
bo
go
needs
sch
nor
##vel
pole
##itch
##and
##eck
##ul
##uth
cct
cctv
switch
se
wb
##ft
##rian
fro
south
##im
##ner
from
wi
this
signs
north
sp
corner
fi
##ool
pedest
pedestrian
ac
eb
school
heads
##el
##em
##one
left
check
camer
##ate
flashing
ba
ph
##il
new
has
##ac
west
level
sh
##own
##00
##rou
##les
##ase
ver
##ke
rec
##ust
##ble
##ue
do
##ta
going
##ia
##up
app
lock
##ple
##ist
al
dir
##un
##ere
ex
##ved
##34
box
stat
##air
push
de
east
pull
##ell
bl
78
report
led
par
ind
loo
was
lights
or
##us
locks
crossing
zone
##gram
##ding
##934
##ication
##qu
##934e
78934e
ad
chan
direction
side
by
##art
can
if
its
ar
walk
sec
tim
via
section
down
lo
##to
program
repair
##ower
comm
##ld
un
an
power
##uck
pre
when
##du
##ile
bbs
ro
ha
##ick
camera
##if
##ei
bul
recei
ma
will
iss
##ip
aps
received
fiber
##11
##ers
##atter
upgra
mob
##ree
cable
ple
00
batter
##ged
##vic
indication
la
inv
am
apd
stand
there
##gh
##ant
back
##mc
tr
89
standard
fa
##walk
##nect
35
##round
##ron
##per
stuck
##ity
cont
mobile
nw
dam
##its
see
bro
dama
place
##ess
##ps
inc
##mo
verif
states
been
im
lam
mi
##yc
wire
##ems
##arch
does
they
as
en
##ure
upgrad
boxes
signals
nec
directions
rat
##lic
verify
##search
research
1st
we
bulb
called
##int
phb
kn
##row
##ced
connect
crosswalk
##vers
##ies
exist
please
buttons
10
##lu
##ory
acc
bait
one
existing
lan
pick
##reet
##atch
lamar
street
18
ri
24
mmc
##ould
cyc
sup
have
rd
##te
time
batteries
##me
##ood
##ans
##ore
##entory
inventory
arrow
8900
flasher
sr
##di
remo
issue
supp
##07
vis
conf
you
##ru
nwc
park
##ot
road
damaged
##ens
us
##01
##ds
amber
##ated
over
##ult
const
##os
reported
##ring
##ken
bound
devic
kits
##out
##ang
items
ball
##vd
##ion
lane
knock
##ays
##op
##ike
swc
city
align
311
##ress
cann
broken
mon
hand
##ssing
##ther
northbound
phase
leds
ed
##ustin
equ
card
equip
southbound
right
##bel
##iti
##pi
contro
supply
per
austin
yell
##ol
adj
yellow
##ine
cameras
##fp
lpi
off
2nd
adjust
spring
change
dri
sfp
##22
##av
##used
imple
equipment
##laced
##rect
##ction
##ks
comple
upgrade
implement
##sr
##ars
coa
edge
loc
due
westbound
ho
##tic
##ub
missing
devices
vide
##wide
turned
citywide
video
##ording
requ
tw
according
##nt
##um
##ance
12
dr
both
##tach
##02
ground
16
ins
burn
attach
eastbound
get
##rid
##lan
constant
##age
##ller
fault
fron
loop
replaced
ups
##fer
##bu
##ong
remove
tree
upd
fac
gu
##way
##pen
stop
acti
patch
sti
bra
##ount
parmer
af
##anch
citi
needed
citiz
cables
##ous
183
blvd
facing
modu
found
request
tri
##ew
##ues
peds
##king
citizen
into
29
##west
##ning
ih
inclu
15
##port
ln
controller
complete
modules
ser
##ite
##our
only
activ
sa
bad
##erson
ab
##oot
other
including
installed
trans
##ach
fo
vertic
commun
rad
##ven
##ary
##ors
##eld
##gress
##tage
implementation
hang
cover
springs
turning
cords
stated
reused
fix
set
vertical
##ma
##alla
17
condu
11
du
lim
te
##ally
ta
##ted
##ne
hanging
res
##mart
show
352
conflic
conflict
##allation
after
man
installation
##20
correct
##fore
wa
##au
radar
##ping
met
like
##reek
air
before
au
run
##unction
ip
long
##so
throu
bbu
##iam
sy
##ible
burnet
ve
congress
##emp
hole
##east
span
open
##hn
coming
block
test
through
issues
guad
about
##are
##der
way
add
airport
45
bar
mc
tec
bee
##ting
some
grid
br
hit
cannon
##ker
dis
also
still
##ata
label
wait
onto
prev
maint
sens
anderson
monit
trim
trou
##cy
william
##ward
##ib
fail
sla
##enance
monitor
creek
mort
than
##land
##upe
location
trouble
mortar
maintenance
##mit
wires
cl
knocked
23
obs
##down
##ert
near
##aca
pe
##ill
unit
guadal
guadalupe
loops
around
travel
may
##ern
count
rivers
##ark
riverside
cre
arm
290
eart
oper
eartc
ter
conc
##tive
cap
1c
##35
##alle
##ped
cars
##ass
20
##inal
appro
gra
notes
insert
servic
cycle
mor
##ving
obser
sub
##ield
##ugh
mod
southwest
##ric
limbs
rela
two
foundation
well
##pos
##til
move
just
##ya
##lt
##llow
fir
##ead
bu
51
cards
branch
##ind
slaugh
slaughter
put
very
data
communication
detect
service
grids
##ond
##ctor
proper
any
frontage
sensor
gridsmart
reporting
submit
audi
syst
approach
ke
##ten
##rong
jo
says
##ave
##lk
##ian
##enter
never
wee
##pe
##shoot
##icat
center
dig
would
##able
##ial
wrong
loose
day
##nel
troubleshoot
##dle
##day
battery
veh
sk
##umber
##mail
channel
make
transfer
min
mast
caus
invest
vehic
investig
##ak
conta
bulbs
email
mlk
poss
##med
id
pa
timing
attached
number
cell
##lar
concern
mid
beac
csr
beacon
40
valle
##berg
doesn
fya
##ious
checked
74
contact
dark
inver
cycles
braker
being
bec
##ware
chang
##60
inf
cannot
inverter
function
now
update
valley
fl
indicat
enter
##lance
operation
##pla
##val
white
mill
glance
##om
##eed
##21
cam
covers
contra
follow
75
pan
##ie
ret
splic
appe
installations
river
col
panel
38
sc
##ale
mop
19
dc
noti
##ame
upgrades
term
mopac
mul
short
attachment
172
dual
middle
far
##ling
fdu
lt
port
##ag
##ff
updated
conduit
causing
old
##par
##vis
bike
wood
##ater
had
heading
##oc
then
she
barton
traveling
el
##und
##isted
completely
33
##ry
##507
##asant
modem
int
across
skip
investigate
prot
pleasant
too
##esar
knockdown
##ause
cesar
hill
##na
pedestrians
because
##ih
high
##rd
##ected
##ien
##ms
relabel
entered
##101
separ
upgrading
##ating
ag
even
##field
separate
ben
previous
submitter
13
bet
could
stra
times
press
##ink
recall
front
620
cur
##ich
##ently
##68
point
should
metric
##stru
ref
turns
movement
properly
system
14
71
were
flashers
said
morning
me
##mu
##ering
7th
##502
chave
while
preemp
chavez
es
##esc
damage
pb
##ero
##very
##gy
expos
don
gi
##24
##1016
hard
cameron
89502
##5071016
895025071016
30
##ople
##but
area
san
##31
##ident
##uring
order
##ney
people
crew
ass
##cb
northeast
contractor
low
olt
##sb
##orf
parkway
##aving
##alf
##nder
24art
techn
##button
oltorf
base
cut
##ab
##ris
##25
##ord
pushbutton
ave
drive
51st
indicator
pla
##cu
##vid
defic
color
ele
speed
##die
deficien
##dd
straight
##een
proble
changed
anten
how
##ule
sched
southeast
brodie
tex
shows
##struct
preemption
sz
##ture
##andesc
##ild
incandesc
wells
incandescent
did
backup
vision
minut
technic
6th
during
zero
##ween
visor
activate
45th
between
twisted
deficiency
sin
##wy
##29
##ying
##len
reports
lake
audio
file
blin
splice
dang
vol
##iz
door
manor
since
21
##fit
blocking
thanks
possible
##man
##rofit
image
retrofit
element
fu
##her
car
##83
replacement
come
orig
hap
more
##put
caps
secure
lav
paint
texas
##ain
someone
last
ob
same
##light
##yb
ds
fans
##orm
where
phas
reset
approaches
pic
spic
units
take
antenna
technician
blinking
##ose
##lin
incor
foc
dsdd
men
wir
##ty
##30
coll
mcc
tech
minutes
rund
##aw
##do
refer
##ady
which
incorrect
rundberg
##head
ih35
appears
schedule
fall
##wards
first
spicew
222
four
rel
protected
spicewood
dav
##pb
poles
original
atd
line
lavaca
bus
every
fan
qu
##con
##vation
leaving
second
##neil
mcneil
##red
visible
15th
noticed
360
them
##ital
atc
observation
functioning
problem
cat
hour
tx
pho
vehicle
multi
skipping
22
##ied
rest
calls
web
duval
dess
under
##de
12th
showing
flick
reloc
sent
watch
##ai
##kes
##dition
prevent
danger
dessau
##cm
##47
northwest
walking
av
bre
##ask
##ough
saf
photo
sure
##ola
sever
address
beeper
changes
##dale
##iew
##erve
firm
exposed
25
pass
task
##64
##39
##qg
##arp
confir
teles
picture
dim
fm
##xt
correctly
waiting
hills
firmware
teleserve
##ence
##ruction
mench
flickering
202
lou
mall
##zw
##inate
##aying
##ille
phases
collis
menchaca
case
loss
accident
observed
john
##rex
wiring
2222
several
collision
##lly
allow
mobot
bull
mobotrex
good
##26
outage
dangerous
ko
##ville
##38
##onds
next
track
repairs
pres
##rush
grounds
elementary
davis
koen
##ack
##pm
##ire
##ish
eng
esc
multiple
bur
##ative
seconds
fixed
clos
capital
week
voltage
koenig
har
malf
ranch
##hing
isn
obstruct
##arpment
cir
mmu
night
oak
tess
##ap
start
##ither
dep
know
running
##aila
availa
escarpment
31
want
##io
##ys
##71
heb
seems
lost
main
curr
available
##wood
##rees
grand
oc
rid
##ho
towards
##aslin
repaired
mccaslin
malfunction
##04
##69
springdale
drivers
38th
temp
##08
unable
lak
##most
clock
mastec
pl
headed
##artment
##essary
construction
preventative
engine
5th
mess
##led
works
standards
weed
control
relocate
sv
went
##61
##ug
truck
inform
scre
##gged
thru
until
stick
again
stays
sidewalk
done
##nal
stass
longer
vehicles
terminal
##dog
stassney
mar
war
input
##0007
making
trying
tracker
mount
oder
tmc
reta
2483
cycling
##010007
2483010007
ear
##orn
##ista
##ipe
displa
207
able
brush
either
##co
##raw
stone
insp
countdown
op
ra
##dg
##tt
##011
##ming
##lake
##key
##vdc
datakey
000
brian
##41
##zx
three
top
sho
necessary
inserts
detector
happen
3rd
cra
sing
wr
##side
##65
corrected
putting
let
ssr
##27
field
##eline
audible
24art011
htt
mater
##za
who
addition
lot
programmed
having
weeks
changing
24art01168
material
list
plan
##ually
inch
##ado
channels
brea
lakeline
information
retape
41
lar
pair
##ny
##bg
##ked
##ank
without
rio
activation
beep
er
plu
view
great
pressed
2070
single
https
pipe
##45
##33
##into
##anc
reg
leg
##leson
##cyb
burleson
plus
dia
sit
##lc
##28
##ual
##igg
##icate
stri
goes
exter
dead
looks
failure
##pol
##ix
##ition
##bm
gold
along
lanes
implemented
discon
ridge
pri
trees
##py
##05
##zsb
ext
drip
howard
##polis
disconnect
days
draw
use
##tle
##inst
send
dela
few
jac
pk
sour
yield
##ves
##ade
clear
comms
used
##ibly
key
transferred
warning
external
source
gen
sound
vo
##lated
most
what
backpla
getting
serial
present
shoal
goldberg
aut
my
wall
##tes
got
activated
kee
hours
stickers
eat
sid
smart
##by
##18
##ise
##ils
almost
trigg
config
overhead
tempor
pkwy
auto
dro
med
##ways
##lz
##c2
today
solar
norm
removed
month
resp
grande
dec
vista
##dot
##09
##ice
spot
log
device
332
txdot
malfunctioning
hanc
##ension
cat5
jacinto
hancock
bla
fr
nsr
instead
blu
blind
monto
located
brain
straighten
safe
engineer
additional
100
gate
these
lean
unused
communicate
conductor
labels
szb
wrk
sides
black
27
48
que
##dh
##roy
shop
loy
possibly
terminate
szf
svrd
montopolis
fin
might
nu
non
sat
##15
##ject
##ins
##eces
seem
rod
lamp
branches
hardware
pushbuttons
harris
currently
bic
here
iter
rock
tight
##14
pulled
colorado
bicyc
iteris
8th
ae
pin
##03
##ester
##ured
dirty
##icket
aux
##tilink
multilink
cm
ns
##town
##vz
rew
offic
pushed
indi
visors
thank
##posite
appear
previously
leaning
d4
past
ticket
##ph
##no
##cing
##b3
station
systems
message
28
34
fe
link
##w5
##ror
##tr
##bor
##63
##ont
##ready
som
already
haz
stonelake
72
made
oh
##line
##cess
##vb
att
steck
advis
downtown
elect
fuse
loyola
nueces
ber
mes
pal
##lo
##com
##hc
##back
##ective
conn
dean
alignment
setup
early
error
temporary
mesa
blan
lit
##ok
##ral
##dcb
##li
##inney
though
acorn
checkout
load
morris
39
aven
ran
vil
wal
##ts
##igj
##resh
##ute
travis
##acy
blue
imp
access
digt
watchdog
tighten
hazard
avenue
villa
each
til
##06
rebu
reinst
bend
project
northland
spl
prep
##umin
refresh
49
di
kra
mck
ye
##fu
##uch
##ones
bel
comes
corners
always
advid
adjusted
detectors
falls
photos
pictures
beepers
find
rm
yester
##son
##mg
##ford
##4g
##kman
##less
swap
checking
uns
remote
transport
graff
jolly
campb
delays
bluff
kramer
yesterday
jollyville
campbell
85
act
end
ill
rut
##other
##vy
##zos
seen
another
parking
tape
blocked
close
336
confirm
berkman
village
advidia
transportation
rutland
beck
hwy
pec
##gle
##75
##19
their
##tain
##ronic
driving
brazos
communications
loud
obstructed
department
materials
legacy
trigger
reinstall
graffiti
88
dms
sl
site
##ett
beg
spec
11th
limit
grass
build
operational
ago
johnny
circu
##hole
split
talk
##ive
##yed
##73
##16
##xx
rema
least
contin
enfield
##ridge
beeping
ohlen
tilted
mckinney
came
intersections
##bsr
preven
004
##073
inside
metro
quin
occ
keeps
digtess
32
away
bi
dale
pond
sam
##vc
##han
##17
conver
cleaning
wil
arrows
##ols
peak
diagram
backplates
circuit
quinlan
26
ev
ris
ti
ty
##ode
##bo
##tire
ste
calling
provid
##anded
sequ
completed
arms
woodward
giving
restore
drop
connection
preventive
4p
55
tp
##over
##wn
##ault
##use
##ular
##ething
aren
##lice
burned
submitted
didn
wants
months
something
advised
pecan
cla
hou
name
water
##ax
##dgh
##pz
##be
##util
nothing
10th
riata
translated
resol
pointing
base64
screen
breaker
decode
spotutil
queues
44
hoo
mark
##nch
##cle
##37
##inity
isola
stay
sol
process
##ung
requested
activating
conduits
sensors
operating
took
beckett
bikes
64
sm
wav
ya
##lig
##2h
##gn
##66
##ura
##onn
installing
##fication
switches
##ility
dog
status
trinity
entire
##enson
home
country
buil
skipped
closed
shopping
rodent
4th
65
dup
later
nuck
##23
##mp
##fy
##align
ats
hel
tried
##21073
24art21073
large
37
ew
ram
##dy
##ground
##13
##aded
height
chew
##ctors
shoot
stating
blow
look
enough
super
saw
functional
meet
##ably
safet
oca
display
little
timer
type
8p
cou
emer
esr
feed
gro
placed
tell
wind
##patch
##fr
##67
##eton
##ates
##icon
str
chicon
bot
spans
fire
bag
route
parker
constantly
dispatch
keeton
return
192
median
occur
sequence
isolat
wavet
nuckols
safety
711
bill
hub
ly
pbs
rr
rand
sur
##ww
##dc
##pens
##ient
##0ag
##utral
noise
neigh
neutral
168
waited
happens
underground
inspect
plugged
attemp
electric
rebuild
duplic
fur
jim
tc
##ez
##ily
##nn
inac
##rastruct
cons
programming
pressing
entr
##ube
burnt
team
many
nearby
infrastruct
given
disconnected
bicycle
solid
neighbor
duplicate
entrance
infrastructure
bridge
flu
fine
half
our
##list
##pass
##mes
##40
read
trail
prob
arroy
##luz
driver
afd
monitoring
beacons
johns
obstructing
riser
help
arroyo
400
731
##aks
##vu
##hood
##12
##32
##ings
output
##tonio
part
##tom
antonio
screw
whole
regard
strip
frank
illumin
provided
chewed
neighborhood
flush
439
50
73
722
721
date
sil
##95
reach
##ather
staying
##urch
reds
cleaned
##bert
shady
try
connected
gets
likely
detecting
exposition
circle
voice
year
dou
dem
furn
oaks
##lective
##nz
##yx
##jor
##ired
apartment
police
##kend
exit
def
seco
rob
major
24th
parkfield
balls
testing
create
##allen
weekend
give
restor
confirmed
marking
normally
probably
bal
bent
bould
cu
foot
util
##ned
##vk
##fs
##9u
##36
##zcb
##ony
those
copy
##fficult
##ments
seyed
direct
robert
handhole
stopped
concre
##ihr
##ihro
full
prior
configura
difficult
convert
building
bottom
further
configuration
58
gat
manch
ru
wsr
##lm
##0b
##mb
##94
##10
##qgy
online
really
note
##thing
boland
recable
timed
indications
amher
relay
sky
pointed
2024
opposite
happened
remain
inactive
concrete
bolander
amherst
dif
gr
lid
saying
wo
##ofield
##lb
##ever
reb
cause
state
forward
beh
leave
trace
comal
moved
upgraded
local
taking
##aw5
happening
##coming
talking
manchaca
47
67
90
deck
faded
gar
pay
##get
##vs
thom
once
##ason
sta
##adig
repe
lead
punch
pos
five
recently
looking
rot
##ified
backed
105
support
using
symb
##ibility
county
info
reflective
reference
##pbmc
dimension
maintain
extension
finish
palo
house
restored
utility
skyway
differ
59
95
cmu
ft
fair
gin
her
sun
sms
vac
vdc
wick
##dor
##62
##xqg
##ara
comp
modi
progress
why
makes
your
require
requesting
someti
operations
plate
##vidual
##ized
started
respon
officer
individual
silver
demo
furnish
balcon
decker
different
modification
2p
200
ced
ccu
denson
ether
final
late
mead
much
person
rt
squ
tie
won
zones
##oll
##oper
##min
##fb
##alid
island
repla
##cket
condition
callback
post
##acle
cant
secured
sections
asr
knoll
##mend
covered
fully
plug
normal
sams
supervis
wavetronic
reboot
balcones
cedar
401
52
57
77
79
ahead
bond
del
dist
ener
fre
him
hhc
jord
none
##ges
##85
##49
##zm
##ana
reason
storm
##estion
convers
hear
worked
##berville
board
bolm
northc
recom
bypass
arter
unk
29th
barb
movements
assign
webberville
bulldog
current
rail
rewire
belie
randy
robin
symbol
jordan
recommend
6p
69
avery
ct
des
fut
say
yag
##view
##0cm
##bly
##ination
reza
realign
convic
train
paradig
ross
##osed
guide
bracket
covering
fixture
afterno
maybe
daylight
pack
405
flow
scofield
farms
assist
driveway
louver
sitting
volu
wrk22
feet
event
markings
payton
meadow
conversion
arterial
barbara
future
convict
paradigm
afternoon
811
9th
bas
king
lin
laying
live
pix
tur
##pus
##gig
##ness
##uation
##ald
inav
##tial
##tially
cabling
moving
files
doing
max
verified
24vdc
##tend
supposed
added
related
elementry
2023
mallory
drawer
satur
pinn
##w5k
blanco
lynn
##luzyb
sometimes
replacing
energy
201
62
724
hart
ki
ok
##af
##0ig
##hbm
##mont
##48
##iner
##ange
corrid
wbcu
spe
shut
recover
streetlight
guard
active
setting
spanned
##mitt
terra
protection
breaks
continu
rrfb
behind
position
unkn
pinnacle
corridor
buck
banded
ded
dan
ga
saving
www
##pu
##sp
##mi
##zg
##sham
coils
church
bolt
##uther
##ately
deg
lack
backing
incident
roads
takes
manage
josh
plaza
##ize
clocks
craig
larry
strips
steiner
dropping
billy
regarding
boulder
turtle
saturday
unknown
68
gas
gone
listed
mart
ow
##wr
##dlc
##lj
##yw
##ha
##fied
##oun
stock
child
greens
bare
sher
adv
##iff
35th
confus
communicat
tested
causes
paez
colors
highway
assem
busy
mounts
waller
##vbib
resolved
savings
communicating
402
730
cent
ever
kind
lens
yout
##pt
##tc
##vide
##mm
##42
##91
##ino
##als
thur
oncoming
##reme
##ared
char
composite
provide
angle
pickup
visibility
##avy
opened
flip
speedway
extreme
impair
slow
##0agug
default
##pbmcg
volume
extremely
97
alar
cub
fund
gig
his
page
rain
sbsr
sdlc
##ove
##ren
##hi
##3j
##ersham
##enced
intermitt
cabient
##ids
often
within
exp
broke
enc
stopping
above
created
gracy
troubleshooting
master
##lard
contractors
130
however
##yb3
##hollow
displaying
inspection
crash
drawings
lamplight
##load
blank
##fuzcb
specified
marked
isolators
franklin
vacate
wickersham
square
wavetronics
management
joshil
impaired
cubes
42
969
hor
mis
vs
##a3
##ni
##hb
##mar
##4oc
##alth
think
##lex
tod
toward
##ical
caused
##rist
soon
poten
arri
ann
rose
125
trip
metal
syn
creating
concerned
curb
problems
referenced
question
break
allowing
walsh
32nd
grove
tcp
##ihrozsb
rush
samsung
dedman
children
assembly
youtube
53
80
bring
clu
cpu
goo
kids
mary
mhi
sus
win
yet
yes
##wh
##wan
##ep
##go
##set
##bro
##xa3
##3r
rear
ready
##ath
##ents
health
trails
crosse
swol
##ander
westlake
recon
##upxa3
mail
##rown
connector
cycled
overla
equipped
perip
limb
closest
safely
office
prepare
unsure
willard
##pz2h
couple
feedback
consist
etherwan
killer
owen
alarm
club
mhiupxa3
swollen
mhiupxa3ana
54
ban
emp
fy
jen
om
pad
tar
ut
##oss
##lf
##ific
##yle
##v0
##hes
##zs
##alt
inoper
##ork
reti
##shore
##shire
##ray
stu
style
coord
christ
compla
bagged
recent
extend
face
asap
107
result
slack
teri
approaching
panels
notified
lakeshore
replacements
starting
regular
backplate
hook
small
directly
pixe
bucket
rosewood
##brook
peripher
cro
fast
gun
hol
jc
ol
sim
tk
var
##lna
##lih
##pcyb
##erm
##ency
##road
##lling
cabinets
poe
westb
##ify
connecting
streets
usually
120
contacted
splices
elmo
highland
dangling
wanted
situation
emerald
supervisor
northcross
##miss
barely
google
inoperable
pixelated
2507
36
bor
jam
jones
must
nav
pr
row
tm
##ift
##iated
##ye
##yon
##b2
##ales
##eth
##atton
caves
flashes
outside
chase
##aster
whe
looked
canyon
unp
unb
unless
anch
005
neches
cyclist
complex
hollow
vend
blocks
disco
204
##rich
minor
##ages
##24g
wired
falling
marc
earli
##b3j
actually
processor
ramp
struck
##0byb
##aw5n
thomas
rotated
railroad
8119
omni
border
tmib
300
84
bc
bri
fit
gab
landed
oth
osb
##n0
##caster
##fz
##87
##89
##kam
##rest
##llo
signalhead
cost
##ird
##riel
exce
pushing
partic
002
lancaster
locate
stoplight
352i
trimmed
scot
attachments
##vision
woods
eliz
##abeth
plates
everything
##zxj
41st
##dhj
##xxxx
##box
##body
hooked
lateral
emerg
##ihrv
5231
settings
degrees
##wright
##lnah
westbank
earlier
gabriel
elizabeth
08
407
bou
i35
je
jared
oct
ronn
##wg
##lish
##ilar
##gest
##vard
##bw
##fa
##80
##93
##xpz2h
##iness
##orne
##ston
##levard
##rogram
##eter
neare
##addle
reprogram
##iden
heather
deta
pub
##ayb
##ecting
sbfr
nbl
##sey
phone
wasn
immed
removal
required
aff
17th
runs
locations
approx
mode
anyone
numbers
csrs
indicates
millwright
spliced
notice
notify
recalls
##ablish
observations
##cm9
31vdc
feel
electrical
illumination
requires
assignment
yager
bolts
martin
confusing
overlap
unbag
vendor
marcos
others
osborne
emergency
boulevard
ronnie
nearest
01
87
bit
bow
batch
edi
fis
frid
io
jr
jum
pel
sug
##ihn
##gre
##mgy
##igfuzcb
##tis
tot
signage
##aton
##ters
store
##adow
##vered
##usted
##tages
downward
anony
willow
003
##mey
ambers
meter
beeps
bratton
obsc
detected
campus
following
termination
##fferson
##ociated
toomey
##struction
associated
voltages
obstruction
phasing
business
fanta
quick
allows
crack
clearance
keep
reinstalled
resolve
functionality
double
fairfield
maxing
##hbmqg
continuous
sheriff
horiz
fyas
peripherals
jefferson
public
immedi
anonym
05
7am
big
cour
est
eas
gave
justin
len
less
luther
pc
pers
sund
sray
tb
tu
tam
wd
wont
##d2
##net
##hill
##88
##81
##97
##uate
##kg
##read
##arily
##athan
nears
sto
forest
lighting
pola
sbl
northside
ph2
doors
los
backs
picking
2400
roadway
implementing
hold
twice
seton
##ernales
modify
ports
speeding
depot
inspected
letting
electronic
surge
screws
apartments
gattis
advance
thurs
##yb3nz
sync
complaint
holding
wheel
anchor
discovered
friday
pelco
tudor
211
221
46
66
720
band
duth
ez
eval
etc
jack
lower
sum
six
valid
ways
##dw
##dx
##lton
##lock
##pack
##gg
##gla
##glen
##nec
##nut
##ser
##hart
##zaw
##ina
##stic
##ene
ones
toby
##rell
review
##ether
##shing
pedernales
upon
wbl
spo
shift
eastside
ada
command
uni
unnec
backpack
brook
overg
monter
badly
taken
dont
gives
##abled
starts
mounted
##dg8
##zxn
finally
tpw
stayed
##onnet
isolator
grn
staff
frequ
based
questions
winds
bann
tarlton
particular
##cm9z
##greens
anonymous
thursday
duthie
06
1gig
438
60
alex
bank
crush
em
eber
mph
nbsr
oval
pur
su
such
salt
vand
ymc
##wild
##ah
##rs
##gate
##ns
##nj
##sw
##yton
##50
##ham
##bonnet
##kville
##kins
##que
##erry
thin
ongo
##ator
node
neil
repub
##bsaw
##self
southside
ebl
exper
pulling
blown
programed
ang
roman
0024
0029
0039
0018
##versity
1826
monday
holes
brand
discu
counting
512
keaton
ltp
141
24art01
incorrectly
confirms
mounting
option
optic
prim
drove
queue
##loye
bluebonnet
exiting
gatling
forwarded
repeat
reconnect
consistently
employe
retiming
except
heatherwild
bowie
fiskville
continuously
sunday
wdt
polara
spoke
university
crushed
ongoing
republic
discuss
07
135
2x
411
98
911
dit
li
mule
sand
tan
yard
##oid
##oked
##rv
##dom
##ler
##pite
##night
##su
##sec
##ca
##cg
##cia
##mvy
##for
##alized
##time
##lew
##ette
code
##ison
coron
##ayac
##uled
##ilt
westgate
##kew
reco
recur
deer
blk
parke
download
001
amp
amount
trl
350
adjustment
twin
resident
manhole
20c
observe
woodrow
woodland
717
preempt
scheduled
mention
mccallen
weeds
delay
medical
attayac
walgreens
tightened
unsaf
occurred
garcia
repeated
modifications
distance
believe
despite
##4ocz
susp
stud
details
suggest
nearside
overgrown
eberhart
ymca
##bsawdo
experien
unsafe
220
43
96
aer
ast
dies
desc
fell
ge
hi
hot
jon
mm
match
pi
patter
rate
rich
ss
tied
wide
wand
##ober
##act
##ially
##ging
##nas
##57
##0aw
##hoo
##more
##burn
##3qg
##jcm9z
##err
##ig9
##igz
##ig9u
##roe
##render
stp
stub
##estnut
forced
##ceed
bell
leland
chestnut
moment
proceed
shell
##ister
crossings
roy
##ession
mira
encom
monroe
##ibr
pear
crest
anything
investigation
scene
elim
evening
points
##mug
antennas
davit
louvers
##085
engineering
svr
stonehollow
plans
diagn
sending
gener
seemed
34th
##igj1
division
years
triggered
begin
specific
connections
surrender
outputs
dougla
##fsayb
priority
compli
responding
hartford
central
flipped
intermittent
encino
potentially
arrival
crooked
unplu
cyclists
october
stops
thinks
heatherwilde
recogn
descri
jonathan
wandering
douglas
6in
76
973
aust
cree
dai
fra
fallen
gb
ips
ign
libr
mas
pow
rb
round
rust
slight
ten
ur
zil
##ome
##aking
##ls
##lzw
##pec
##ey
##gan
##tmar
##ces
##creek
##yw5
##b25
##fya
##43
##90
third
##orter
##ecreek
told
##ignyb3nz
rem
nobody
instruction
itself
cook
heavy
trave
soft
comments
##ockburn
poor
mot
sblt
nbfr
shadow
recv
##upon
alumin
787
partially
sideways
arbor
0026
crosswalks
10gig
visually
perio
radam
sets
conductors
veget
bright
2022
property
##tention
infor
indicating
better
mey
30pm
minute
227
webio
avoid
lakecreek
inputs
##bglnah
##lcib
##lzcb
respond
spotted
rockwood
bicycles
rewired
rework
indios
accessible
rebuilt
actual
remains
continue
##vc3
smith
yaupon
##aligned
43947
remaining
dimensions
maintained
progression
believes
speak
misaligned
scott
##face
immediately
validate
bannockburn
24art0107
dittmar
astro
mirador
pearce
creeks
daily
library
powell
zilker
aluminum
vegetation
02
63
700
bat
busted
cry
daw
gus
henson
ids
sight
session
tall
val
wit
##of
##ota
##well
##word
##l0
##pkins
##ex
##ior
##nr
##sure
##55
##mph
##b24g
##xr
##zh
##org
##ster
##stal
##stow
##enti
##enny
town
##atford
##shed
##ically
flashed
neither
##asota
internal
noted
needing
##merset
whether
##andem
wblt
lefts
hasn
dot
rog
broad
incre
ensure
##rum
##ope
perman
##uminate
121
grounding
170
conduct
112
taped
##nehill
barstow
trimming
morrow
anymore
job
masterson
ide
409
elmont
protective
couldn
curlew
espec
howser
volts
passing
password
2020
2021
accidents
dept
raise
diag
configure
493
below
illuminate
slot
##vcib
houston
inspector
attempt
attempted
attempting
illuminated
##gether
thompkins
maintainance
6200
charge
funding
breakers
christina
##mission
james
navasota
##idential
quickly
cracked
tbd
##zawdu
##dg8g
frequently
tannehill
##4oczdcb
aerial
diagnose
rustic
travelling
informed
crystal
especially
111
2ped
3d
3m
335
61
70
az
bay
cy
cvs
dest
dalla
eff
free
hu
hun
jul
jvs
lon
mun
ps
path
rsu
sen
vic
wm
winst
yfya
##ger
##cl
##yes
##vw
##vj
##vate
##53
##fay
##86
##46
##ky
thing
therm
##anza
##icated
attention
##change
letic
hello
chris
##ayo
gov
switched
##acti
shown
vers
alland
allen
expy
deaf
parts
walkway
rout
lafay
##ghorn
tran
asked
weather
aligned
edward
perha
##tically
dry
upside
##bukam
transfor
radio
tap
conflicting
longsp
peavy
united
morton
foundations
5120
5125
identi
indicators
elock
330
##ihj
mornings
30am
assum
plastic
backups
secondary
##ledge
against
lets
##dhr
##royed
26th
##axmg
processing
374
ramsey
heights
meeting
stratford
occurring
static
596
conditions
deloss
##0cml
lines
coordinate
various
##xpz2h0
affecting
approxim
establish
tamayo
angled
primary
employee
deerbrook
eliminate
unplugged
slightly
period
witness
##orgian
rogge
azie
destroyed
dallas
longhorn
thermal
leticia
allandale
lafayette
perhaps
longspur
134
501
5pm
739
86
816
cal
dent
fal
hy
hyb
hung
iron
kenny
ls
land
lft
lac
lun
mec
rav
tandem
vault
yb
##win
##rent
##dv
##lse
##pling
##ier
##ians
##gth
##saddle
##tty
##cro
##59
##hdcb
##mine
##fig
##ful
##78
##9y
##1st
##xh
##xj
##xmg
##zy
##inated
##stand
##let
##ena
together
##arently
##lled
reel
##eters
##ature
##rap
##ider
##idrich
coil
##oom
##isd
##ism
levy
##rie
##ameters
pulse
corpus
spect
eblt
##001
dod
apparently
exchange
deep
pullbox
parameters
downwards
pretty
0019
invol
stander
##lution
##ruct
##enscro
overnight
faulty
faces
module
requests
299
foster
synch
barker
operate
519
functions
7527
woodhollow
##ihb
presses
143
eskew
assess
##ndera
lasts
allowed
presidential
closer
harness
31st
messed
messages
oppos
sounds
automa
##b3ig
##ontal
palm
855
851
acting
evac
market
coupling
tcso
4394
weekends
silvermine
freidrich
packsaddle
##3jvc3
intermittently
extended
olson
chasewood
horizontal
length
jackson
windsor
students
georgian
pattern
ssid
specifically
software
motor
dawson
vict
transformer
hybrid
mechan
ravenscro
ravenscroft
122
261
3section
301
4x
4in
447
83
825
94
941
cc
dube
fc
glen
gault
mue
matter
net
ruther
salid
ton
veter
wol
zach
##wise
##a2
##lor
##lcyb
##ef
##ium
##gas
##sg
##ci
##vgh
##bing
##84
##74
##uilar
##u4oczdcb
##zig
##zzw
##era
##inally
initi
##iglz
##ley
##lease
##lam
##rew
reuse
release
##ese
nest
lev
heard
cherry
redu
##rosse
worse
crosses
deter
determ
commer
##amp
callers
##uls
sendera
northledge
##acb
docu
alert
dirt
dee
indicate
adding
##ife
maps
0034
0027
##ronix
##peranza
placement
##mod
miss
##atched
180
1825
user
hogan
128
sauls
verticle
##main
118
119
1138
manual
##yaw
bush
investigated
7431
7408
7405
aguilar
bethan
curve
esperanza
plains
placing
##291
lakewood
originally
##tyard
##type
understand
relocated
burton
closure
displays
rais
ridgeline
drawing
gene
triggering
login
frate
1000
wrk24
imposs
swapped
converted
clamp
returned
wavetronix
random
trailer
stripped
##yxj
response
supervisors
yagi
eventually
kingdom
links
okay
potential
annie
announ
53rd
vargas
courtyard
lives
recurrent
mentioned
##bsawdodcb
royal
##igj1dhr
julian
tranqu
approximately
witnessed
lacrosse
mueller
rutherford
salido
determine
document
bethany
impossible
426
500
504
638
818
91
966
best
c085
dung
gla
kel
mic
mil
moun
own
pd
pour
pinto
s1st
vgh
wat
wast
xxxxx
##old
##wk
##pper
##park
##pose
##iro
##gard
##gvz
##cal
##c3r
##yww
##v2
##vlb
##5n
##mb3ig
##b29
##fm
##1cm
##620
##ume
##orge
##ig5
##igold
##ece
##letype
##any
##anced
real
reass
##shell
##termin
##rain
##chair
stak
upper
apart
##ria
nblt
##andria
southern
spru
spare
schools
##ilo
domain
##ists
786
orange
commute
unus
unhoo
receive
mairo
##ipped
0030
0041
standing
faint
known
accom
241
##ities
163
citizens
otherwise
community
174
115
teletype
457
mcd
nearly
services
observing
becom
camp
7502
7108
mean
##290
techs
everyday
relocation
tracks
engineers
sticking
marigold
##zxig
shoes
wreck
priem
gotten
temporarily
27th
48vdc
bicyclist
appeared
walmart
impro
ends
began
metropolis
wilshire
claim
##dghl
##dghlig
643
grover
occurs
7302
587
47th
plugs
northcrest
recommendation
realigned
brackets
684
4028
##where
christi
similar
844
briar
brief
costa
feels
total
totally
persisted
wheelchair
unnecessary
alexandria
vandalized
brandt
suspect
beginning
##fsaybzawdu
compliance
recognize
frame
remount
24art01072
increas
idea
version
spectrum
dodds
involved
synchron
opposing
victory
veterans
commerce
tranquilo
dungan
mountain
waters
reassign
##terminated
staked
spruce
268
361
4ped
462
56
6am
6ped
615
800
8mm
99
937
994
abs
bonn
c1
cust
cumber
da
ec
gard
grou
hugh
jester
kre
mal
mat
mile
os
pon
pil
ring
sx
sle
sma
siam
saddle
tre
tony
tread
##work
##rus
##dm
##ded
##lg
##ln
##pped
##ggy
##try
##cer
##yg
##yn
##yzw
##vhc
##58
##0g
##hy
##hbg
##bur
##xv
##xz
##301
##3b3j
##ugy
##zdg
##ons
thrus
##leigh
tom
tomar
##rop
reat
care
star
##adera
reph
interface
cooper
cone
upcoming
upload
##ried
turner
comh
wild
northern
fil
##elds
leftmost
newly
westover
shatter
##table
exact
repairing
unlock
unterminated
powered
issu
amd
mio
miles
ask
entry
researched
106
visual
adjusting
changeout
drill
##aves
coax
##nted
124
12mm
162
169
##buag
guess
##maw
dug
manually
slanted
##illo
concord
submission
digital
wouldn
404
become
mills
7528
splicing
383
198
191
shorten
higher
142
meas
##sby
technicians
blinks
collins
preventing
##cmt
addressed
253
burrell
trucks
extra
##c2h
##c2luzyb
cat5e
sommerset
acorns
392
496
belong
remotely
##hanna
steel
##axqg
consider
regardless
stripping
bouldin
##vkzxn
grate
leads
respons
ethernet
##zmlj
assistance
##zg9
advanced
976
##hbib
tripped
susque
##while
##3rpb
##dhjpy
##ihnpz
obscured
easy
banding
shifted
purpose
sandra
corona
repeatedly
piece
instructions
meyer
permanent
##cliff
tapadera
calles
automatically
evacuate
determin
##igj1dhrvbib
kellam
unhooked
mcdon
synchronized
bonnell
cumberland
group
hughes
kreig
sxsw
smashed
siamese
treadwell
reattach
shattered
concordia
##vkzxn0cml
susquehanna
0x
1ru
271
441
465
445
463
467
522
571
647
773
960
971
bed
bil
bum
cer
dio
dyn
fad
fel
fus
hatch
hood
hum
hous
horn
hrs
hope
jorge
lat
mu
mer
mura
nam
pave
tg
tac
tues
van
wed
##aker
##rant
##drich
##lv
##lsb
##l0ig
##ption
##press
##ein
##gent
##c3
##cz
##cyc
##vl
##vm
##vyb
##vista
##54
##0gy
##hur
##fsb
##82
##9m
##xs
##3ag
##z2
##ining
##ndary
##rose
##rel
rein
reest
revers
atm
cas
cashell
##tern
##ched
##chard
neen
stro
replen
inters
##cello
lightsey
##ida
##ooth
lege
trash
##amic
##meria
sees
wbr
fish
fields
##eman
##ember
##acent
##acious
doss
appl
aldrich
expla
783
orchard
admin
unst
romeria
0011
0038
lawn
##ght
##ants
seeing
##essarily
import
asking
102
109
1065
1013
lance
18th
246
243
##015
##angle
perf
##olo
adjacent
adjustments
locates
holly
##ub3qg
164
1631
insu
152
150
foam
tab
showed
450
453
labeled
239
pegram
tercello
209
servicing
modems
modified
daytime
investigating
timings
7414
7436
camino
contract
7504
7516
384
381
194
193
##ocz
else
skips
strain
strand
145
means
playing
217
2100
mccain
22nd
harrell
depress
sidewalks
##raw5n
##dggg
0007
415
##bgug
##lcnn
mostly
triggers
##lzgvz
resplic
resplice
frust
##dhbg
##loaded
##lihn
hazardous
859
ended
continues
class
homeless
built
651
##dyzw
telling
4003
7224
##ihr1cm
garage
punchlist
956
compon
individuals
##0cmfm
training
meadows
speaker
terrace
terravista
droppings
confusion
7308
slowing
reconfig
coordination
regularly
##lihb
##b2yg
##xpz2h0ig
jump
jumper
metered
obscuring
terminations
horizon
unnecessarily
##zxnu4oczdcb
##rvzxnu4oczdcb
experienced
hotel
##0aw1
ignacious
urgent
diagon
cypress
winsted
routes
##bukamxqg
identify
dented
##3jvc3n
xxxxxxx
briarcliff
##ropshire
determined
0x00
dynamic
hornsby
muraida
##hurst
reestablish
replenish
legendary
explain
lawnmont
important
##lzgvzdhjpy
##0cmfmzmlj
04
2f
260
229
368
325
341
4section
469
560
668
645
633
614
735
775
835
901
927
909
aware
aisd
bhc
cly
cul
dum
fer
fig
feld
fence
gon
gri
grow
grown
hur
jay
kinney
lupe
lying
latched
mt
ox
pw
ping
pas
pool
porter
rer
ray
rap
sar
vi
ws
woot
widen
xing
##od
##wab
##wzw
##aved
##dp
##liam
##lib
##po
##pd
##pri
##eg
##ev
##202
##gus
##gestion
##nter
##tl
##tton
##cies
##c4g
##vbm
##my
##ball
##44
##4gy
##183
##uc
##uif
##zi
##erted
ther
inta
##ndez
##igdyzw
touch
##res
##resp
signific
revis
##etooth
##ited
signaling
##asdale
form
##idxr
cond
lee
leaves
crosspark
##fficient
##gew
areas
motion
propos
sbx
boston
schwab
wbtr
##ftrap
##els
western
shorter
shropshire
recabled
dove
dome
blink
parliam
indian
lose
roll
hawk
##ipal
00am
0047
00pm
0028
0017
backwards
faith
354
359
damages
doesnt
##intex
1026
1027
1018
1040
185
184
181
removing
visable
parks
uses
monarch
handle
edgard
##inez
offset
drwy
guerr
298
156
activates
fixing
teasdale
tagged
resist
conflicts
wave
opening
459
hitting
disabled
click
230
pend
##357
appropri
517
digging
741
7402
7420
entering
followed
387
shorted
13th
curved
shouldn
1430
mendez
30th
assume
##orders
plant
21st
painted
referred
quite
228
250
presence
riddle
marily
displayed
##dgvk
##zxmg
craft
lots
register
clearly
##c2ln
franc
bluetooth
finding
harrisglen
##149
##vzib
##vbi
advise
palos
digtest
special
wilson
providing
dropped
555
657
ramps
shooting
feeder
strange
7110
readj
illuminating
7301
leading
extensions
rebooted
796
##zm9y
4056
louvered
degree
craigwood
centre
charged
prather
4071
easily
wheeler
evaluate
summit
monterey
particularly
alexander
richard
##errick
##igzvcib
generator
austintex
##lzw4g
valero
baylor
munzi
mechanism
network
tonight
wolftrap
cherrywood
reduce
raised
announce
glass
bicyclists
improve
malroy
ponca
issued
mcdonald
##vkzxn0cmlhbib
bilbrook
diode
pavement
reinli
application
respliced
frustr
clyde
cullen
fergus
feldman
hurt
pascal
wooten
intact
significant
##idxr0b
proposed
parliament
edgardo
guerrero
marilyn
austintexas
ferguson
09
03
1e
269
371
3sec
422
460
525
547
561
665
7c
725
733
8in
8am
822
821
830
847
871
900
aed
brou
bird
borders
cv
cri
c149
den
dps
dix
eating
fam
flex
ferry
flet
ham
hits
harp
jv
ju
junction
ll
lp
lay
merrick
overs
por
pen
sut
size
till
vin
##oor
##oyw5
##olution
##wt
##w4gy
##aps
##ran
##rup
##dit
##days
##d2h
##los
##lma
##life
##ply
##eous
##200
##iel
##i11
##ification
##ga
##gug
##nis
##ncm
##nv0
##sch
##tw
##tu
##crest
##c291
##yno
##vcm
##51
##hen
##m9
##mic
##bell
##f1
##fj
##70
##99
##96
##x5
##xqgy
##xn0
##zl
##onian
##onleigh
##orrow
##ig1
##igrvzxnu4oczdcb
##tier
thelma
##lash
##ench
tops
##rot
##arns
reyes
reacti
reyno
##itol
isd
##esb
caul
##ration
##cher
##oud
stall
stonleigh
##ades
repaved
##vey
needless
upwards
redo
redd
redbu
traced
##ations
worried
swaps
detach
##ly3rpb
poll
nbt
##ulib
seah
##imal
wipe
ph1
##iled
ship
shru
sh71
shaking
##004
verification
recut
dose
apple
locked
alerted
##unk
pushes
indicated
loos
##lds
##lder
prepar
##ifn
##iffs
mobility
0022
lashing
894
brown
wireless
wend
##ints
exists
1020
10pm
1042
1088
187
244
suppose
amberglen
overpass
##vdcb
rights
##olm
##225
##umb
127
129
165
guy
guys
##ews
abra
1109
resolution
audit
throughout
455
barric
##ib3
fails
failed
233
capitol
205
subject
anyway
kept
jose
batterys
406
7422
7433
7417
##215
7511
##ie1
terminated
sheet
protect
##ihdo
##ihvw
agent
bene
##ichlb
refused
148
mearns
hardly
##sb3
technolo
##rison
##25hb
deficiencies
text
szbs
219
pics
##aw4g
buses
everyone
passed
fm620
hillside
goodwin
31v
316
wanting
##04ocz
controls
##dgl
0001
##zxnz
regist
private
smartmic
configured
medium
##c2lk
loyd
pinched
348
346
##w5n
7231
7230
thought
397
394
range
##fully
886
slip
clayton
##axmgy
446
dogs
counter
7116
inspectors
##luzy
7316
##vuzcb
7221
7210
##qgyw5k
##lbib
478
garrison
rotate
1058
1054
##pbmcgy
952
wicks
squir
assignments
bulldogs
692
fixtures
events
bases
##tended
2019
martinez
sheriffs
##vbib0agug
resulting
simply
prints
##n0aw
reprogrammed
court
estim
tamper
complaints
evaluation
vandal
suggested
experiencing
##jcm9zcyb
##jcm9zc2luzyb
##ig9m
austonian
##ignyb3nzaw5n
##bglnahqg
sense
false
lunch
motorcyc
levi
##modate
mica
milton
##ywwg
unusual
accommodate
claims
eccom
pilot
sleep
tomorrow
comhub
wildlife
filters
unlocked
miovision
belongs
certain
fading
latta
tglnah
tuesday
reversed
components
diagonal
replenishment
rerout
rapid
sarix
##igdyzwvu
pending
brought
fletcher
harpers
oversight
sutd
##i11cz
reynolds
redbud
detached
seaholm
##ichlbi11cz
technology
##04oczcyb
smartmicro
224
263
334
307
321
324
347
369
363
367
434
437
432
5c
534
507
531
505
563
630
6pm
609
675
6mm
760
7pm
728
766
860
838
808
865
803
840
842
93
961
914
903
962
ash
awhile
bigg
cr
clar
cube
calid
dra
ebsr
food
fred
han
jun
koc
mow
mel
murch
nfs
odd
purch
ry
rj
rub
rare
room
sig
smo
ug
wis
##omer
##off
##wa
##aur
##rig
##rity
##rzsb
##den
##l2
##link
##lcm
##lzx
##gory
##now
##nqg
##site
##cd
##call
##y2
##ym
##vr
##vv
##vh
##via
##vated
##vious
##0acb
##hue
##hzm
##hkg
##minst
##bt
##bb
##bj
##b21
##b24
##f2
##f5
##f0
##file
##819
##411
##947
##100
##xon
##3lj
##3yw
##u2
##u3
##ution
##uel
##uated
##js
##jvd
##zz
##zen
##zone
##zpy
##zmaw
##kum
##q29
##inc
##inite
thax
##ores
##igxpz2h0
##igxpz2h0ig
##ecc
##stone
##lege
##leman
##lation
##enet
onsite
##ignalized
##uts
##llbg
rever
##iting
isnt
##tered
nov
strong
stack
intersec
##estein
allison
forrest
##ided
##idian
##thm
##though
item
copper
##ooter
lear
##iring
##irds
hein
chev
upward
soco
crosscreek
comment
##amb
##amber
podh
##orted
mods
##bson
switchover
seal
self
phys
westside
westminst
leveled
sha
shade
verde
##keley
exam
exped
exxon
deacti
ord
walks
walked
love
##ldmvy
uncle
ants
prefer
haven
##ifro
map
##115
0035
0031
0045
lawr
therefore
trench
faro
fact
351
##perdown
incred
statesman
imped
asph
enable
##urek
rats
rather
connectors
1022
1063
245
249
24q
##meadow
srs
suppress
parkcrest
us290
us183
##014
##dson
rightmost
##olute
yellows
drift
drives
completion
##arson
126
160
1626
updating
295
296
included
155
154
159
15pm
serious
radars
110
##dering
458
45pm
mcallen
somebody
dismiss
monitors
slayton
##mitted
232
237
236
peyton
pearson
counts
208
20mph
grade
serviced
##rict
bud
buzz
mins
emailed
40th
4065
4045
4032
740
747
7404
7415
floor
camperdown
followup
7525
7517
7512
7510
college
197
199
196
woodhue
elm
333
##ryyw
##ihdv
evenings
132
pressler
recalled
144
712
exposing
gibson
asset
##cb0agug
cutting
eleven
didnt
##izw
happy
##dokam
referring
david
##pbnr
quad
223
restri
restaur
severe
##644
2025
##zw5
##zwqg
##384
harvey
knows
##717
svs
svc
countdowns
##27igj
additionally
410
413
legally
strike
##bm90
##zsbpcyb
##c2xh
bluestein
1007
wrk21
275
##dhvyb
##1501
pinned
officers
##nostic
##nob29
284
feature
723
7201
7238
##vb2
berkeley
loaded
##igjlz
impact
##fuc2xh
unsec
unsignalized
pecos
limited
32v
32vdc
##vcg
##vcn
risk
step
559
tplink
clari
waterford
444
642
6400
smell
yahoo
##lig9m
entirely
##fyzsb
378
littlefield
feeding
window
dispatching
7113
surface
tcad
consult
reading
7310
7318
partly
7311
silk
ruiz
##aw50
677
garza
finished
590
fairly
fairway
company
4016
577
770
district
690
ctecc
design
##0cmfuc2xh
##hbmd
##481
express
target
retimed
olhen
120v
jammed
unprot
##0byb0cmfuc2xh
costco
scotland
##zxjz
affected
8700
##mgyw5k
toomey1501
cracking
immediate
lense
tbase
##d2fsaybzawdu
holds
reviewed
commands
montero
sukum
0700
4113
sandsh
coronado
recurring
residents
compliant
description
##bglnahqgy
broadme
conducted
diagnostic
hunters
govalle
assuming
assumes
ls0gy
luna
initiate
randomly
becomes
increased
absolute
customer
##xv0byb0cmfuc2xh
##3b3jraw5n
measure
bumped
felipe
fuses
human
housing
meridian
names
##lsbcb
unstable
perform
insulation
##lcnnly3rpb
reconfigure
##lzgvzdhjpyw4gy
gonz
oxford
##wzwr
touching
revisit
appropriate
harrisglenn
richardson
portion
caulk
abraham
joseph
registering
squirrel
tampered
reroute
##ichlbi11czt
ashdale
calidad
kocurek
murchison
nfsa
wisenet
##hzmzpy
##zmawmg
thaxton
chevron
physically
westminster
unclear
lawrence
incredibly
asphalt
##ryywzmawmg
##ihdvcmt
##pbnrlcnnly3rpb
##nob29s
unprotected
sukumar
ls0gyxv0byb0cmfuc2xh
absolutely
##hzmzpyy
ls0gyxv0byb0cmfuc2xhdgvk
0vdc
2e
3a
375
373
366
362
430
464
461
433
5g
5am
521
568
541
527
509
540
671
604
669
617
613
7i
734
704
8i
81
820
833
92
926
945
ack
bamb
cim
cem
c16
dates
eta
gl
gmail
gho
hs
hut
hid
imod
jan
kit
kill
lm
lind
mista
nar
omitted
pat
pip
plt
pena
qc
ral
ripped
sits
siti
tor
tel
tem
tille
torn
tipped
ttu
vh
wes
yates
##ozw
##oyx
##wire
##ati
##ace
##ajs
##rec
##rection
##dia
##dpb
##lq
##lies
##lcb
##lied
##lrzsb
##pdcb
##pa2
##ement
##gfz
##grity
##ng
##nc
##nes
##s001
##cur
##cour
##vt
##vyc
##52
##56
##5lcib
##0tc
##0ah
##hk
##hav
##hcm
##met
##mond
##ba
##buck
##bib
##bie
##fk
##800
##76
##709
##405
##98
##1c2
##xlig
##302
##3qgy
##uic
##uum
##jb21
##znj
##k04
##kb2
##qw
##onig
##alv
thor
thread
thome
inte
intended
##ndon
##ndhurst
##iglu
##igeg
##ingwood
##ingham
##stre
##ened
##enger
andrew
##room
##ignh
##ignvb
##ignvcm
##uters
##arm
##arillo
##llers
reip
reill
##atc
##allum
##ic0tc
cad
flat
##asion
struct
interior
forcing
forces
##cel
installs
##thest
##thews
copi
coleman
congest
congestion
leander
##irus
heat
held
heav
chick
uploaded
redone
redlight
trafic
##riber
##rible
headqu
word
worst
workers
somerset
solution
crossed
detections
##mert
produ
promp
whiti
nbr
schofield
schriber
switching
sel
##imed
##imum
spool
pedestrain
action
##oney
checks
ph8
newfield
shock
shield
##0035
veriz
##uez
##iag
##istent
alone
allan
alice
although
##344
785
784
paralle
parents
adam
downed
logged
##top
programing
commuters
unread
answ
animal
roch
mae
0020
0025
0033
0014
##vice
amarillo
##mcm9
trunk
##perature
##moor
images
lammert
101
103
10ft
1071
1019
picked
182
188
189
1806
ribb
240
2418
##angled
edit
cardinal
controlling
controllers
permiss
##ub3j
16th
16mm
##llery
triple
297
293
include
series
serena
saint
ablan
175
178
179
114
116
1100
1135
tee
##neath
wash
456
45am
barron
disable
cloud
2334
travels
counted
operable
capmet
206
grady
moden
model
buss
detects
anytime
anywhere
keonig
joe
##pend
daycall
transferring
contactor
midnight
408
4064
4069
4061
4033
7434
7421
7429
7430
7403
7413
7412
milled
##212
cambell
75y
753
7501
7524
7531
7526
7533
7514
7523
7513
7532
retrie
386
3800
scr
scope
195
fargo
older
##undred
33vdc
##ryzw
knockdowns
highsch
curbs
716
7102
7106
7123
##gyw5k
306
##316
##313
crews
##abil
##abling
volt
210
216
lavista
lavander
obvious
spice
collin
mccallum
##awn
lineout
qui
webb
underneath
watched
##cmvz
bretton
addresses
257
##xtigjlz
louder
##zw4g
##zwqgy
closing
310
318
##iok
##yson
##mostat
sticker
earth
##dg9u
0006
00069
inches
419
lara
erwin
eratc
viewer
legible
##cyb0byb
##lc3r
##lc27igj
striping
##bmr
drawn
cleared
presentation
shoalmont
wallingwood
##lziglz
##c2ug
decided
logic
1005
1006
270
rodder
rodrig
##037
appearing
##phase
286
343
sommer
7235
ohm
connally
##libuag
396
393
walter
##igj0g
##067
splits
491
49th
mckie
##4gvgh
begins
talked
##16384
occasion
samuel
tillery
sequen
5500
clam
##dghlihn
##pz2
442
646
##2hhbmd
655
##mpic0tc
grocer
dispatcher
7115
7118
7111
lydia
lyndhurst
readable
4005
4006
7312
7314
##vuy
##vudg
43945
7320
7225
7229
7212
7218
7216
72102
reached
585
##qgyxqg
grates
679
90t
1050
herndon
sunset
vacuum
2005
lately
wondering
777
779
deli
distorted
hearing
desert
4050
flowing
volumes
basically
pixels
6207
7244
7249
continuity
positioned
buckingham
682
7305
charging
expected
expose
enclos
arrive
synced
overlaps
banister
empty
padlock
results
resulted
smaller
peripheral
##lihj
princ
3000
fitting
##zxjzzw
##ihrvignyb3nz
4070
##etery
noticeable
bittern
##ihn0
persists
46th
7204
evaluated
##dxn
##dxj
primrose
reconnected
employees
982
suspected
suggests
general
tennis
meyers
responded
24art01076
battier
value
permanently
slots
effect
hudson
winstead
##bukamxqgy
elocks
hyridge
hymeadow
irons
##xhc2h
4inch
glenn
levander
##yawfu
documented
poured
##ig5vdcb
realize
becoming
briefly
remounted
garden
matthews
os1
##burg
starbuck
rephra
rephase
considered
##zg9lc27igj
purposely
taco
vantage
wedge
neenha
intersecting
##ihr1cm4g
dummy
jaywalk
##point
thermostat
##respons
condos
resistance
francis
specialist
readjusted
frustrated
1e1
july
##rano
##ncmvlb
##nv0dg9u
reactivate
shrubs
wendys
auditory
barricades
##n0aw9u
vandalism
hanwa
purchase
##nowled
##vvmpic0tc
##8192
learning
heineman
podhajs
orders
severely
##aw50zxjzzw
sandshof
##lzgvzdhjpyw4gy3jvc3n
##wzwrlc3r
2e0
7i16384
8i8192
acknowled
bamboo
cima
cemetery
c167
ghost
lmr
lindshire
narrow
ralph
sitio
temperature
tilley
##5lcibvzib
##kb2vz
integrity
##ignvcm5lcibvzib
reilly
copied
congested
chicken
headquar
whitis
verizon
parallel
unreadable
answer
ribbon
permissive
capmetro
highschool
rodriguez
enclosure
principal
starbucks
podhajsky
##wzwrlc3ryawfu
1s
265
2amber
322
329
345
425
4pm
471
428
4073
466
511
583
564
565
533
523
567
622
602
612
694
7101
764
709
703
706
794
8ped
868
805
863
837
812
907
902
930
908
963
995
948
942
980
997
aw
akins
bb
ble
bars
boot
bern
boun
boom
cate
cru
cues
ctr
dor
dated
dau
diam
drain
ep
ess
elk
eyes
elder
fw
fed
fun
fol
frie
gha
girds
hide
hos
hop
hether
hamp
ir
ibm
ivy
jur
jbox
krie
lumin
lift
life
mr
ms
mus
nich
ora
pra
pitch
pac
pens
palle
rig
si
son
sna
trian
tus
ties
tire
tangle
w38
wbsr
wrap
zh
zip
##ob3j
##wdo
##wvz
##w4g
##right
##rlzcb
##des
##dge
##dist
##d29
##dw5k
##lle
##loo
##pw
##pcy
##pital
##ptable
##ptop
##ee
##eye
##gu
##glj
##gq29
##nad
##nest
##nmg
##nett
##sing
##sar
##tm
##tzsb
##tdx
##cr
##ccess
##cany
##yard
##yond
##ylv
##vor
##var
##vul
##500
##571
##575
##5y2
##0k
##0ac
##039
##0dxj
##hz
##hang
##half
##hcyb
##hcmt
##m7
##mark
##mvk
##mony
##ban
##bes
##fe
##fc
##fth
##fers
##f22
##ffer
##fare
##f0ig
##flash
##804
##702
##9w
##911
##907
##902
##973
##1c
##1vuy
##607
##xl
##xn
##xvd
##xdw
##xistent
##371
##uie
##uating
##jag
##jdcb
##jb3j
##jhzmzpyy
##zine
##z29
##zyb
##z3j
##zdhj
##kb3
##qyxj
##ersection
##erning
##onfig
##edo
##inch
thx
things
threw
ine
##oral
##igr
##igdv
##igl0ig
##ingly
##station
##stop
##tim
##late
##lawn
##ania
##enix
onbe
todd
##rote
##ignoyw5
##ign5y2
##reg
##uted
##ators
##allow
##shot
##iction
##icap
##esection
##esma
caution
signaled
##rail
##chj
##chine
notic
neff
##ighter
##ouse
string
stead
stnad
##ada
##adem
##adian
cabled
##ssino
ally
allyson
ford
forever
##ceptable
bew
beyond
##idxqg
##ural
coho
coadig
##entative
##entwood
##isy
lease
leaking
outs
chia
butler
##ficial
worn
workday
swp
swing
swallow
compar
combo
##ly2
##lying
##lyxn0
##aming
core
poison
moder
grey
prosp
##bsb
##bsite
sbtr
norep
##anda
##andon
search
seven
semi
##ftwood
frozen
northloo
spr
space
academ
ebfr
##elle
baker
ph5
ph4
phbs
pharm
##aco
levels
shared
vert
recie
record
dobie
##tains
##iawt
alph
alley
altern
exte
excess
deal
eastern
##elly
ledesma
directional
canter
art
arts
walker
walkers
downloaded
ant
ange
anno
receiving
maple
machine
##ipant
##117
mobil
0021
0037
0036
laptop
amhurst
##ghter
true
890
891
355
##rounding
brow
incom
verifey
imad
mike
enabled
##ures
108
104
1069
1033
1017
pickle
247
2434
2404
2428
supplied
visited
confused
##rux
parked
usual
##019
construct
handho
handicap
changeable
drilling
##2222
homes
##ubyb
##025
1632
burning
##laneous
trissino
ihop
158
153
15am
1501
1545
serving
safer
abandon
transition
transient
transfers
covert
1150
duration
manner
##20g
##208
metho
aug
vega
spanwire
barn
somewhere
brick
brentwood
disc
disre
disrup
sensing
troub
williams
mortared
238
terrible
concerning
capist
203
2011
515
gridsmarts
approached
joan
minimum
possibility
concerns
midday
403
40am
4022
4047
4041
4094
7428
7432
became
##605
floral
##210
contrast
751
756
7508
7505
7518
7515
7519
colla
388
scooter
190
##agfz
##rys
##ihz
##ihdhbg
##ihdp
##ihryywzmawmg
highly
bennet
bennett
137
139
1300
currux
pointy
140
149
146
719
7128
##gym
##gyxqg
harder
plays
plaque
elem
speeds
texaco
##izing
##izes
##ization
##izsb
218
214
##833
##ained
obtain
phased
##awxs
fourth
relies
phoenix
226
2200
restart
flickers
##oughfare
255
25ft
25mph
passes
##641
fm18
##zwx
collisions
##265
nextphase
##ished
closet
harbor
harmony
malfun
circ
nights
deplo
312
315
314
313
##712
maintains
riding
malfunctioned
messenger
##615
screaming
terminals
warn
warrant
tmconfig
rait
0005
00068
00075
breaking
4100
4106
##bg9
##bgvm
erra
plume
viewing
##bmfs
pried
autozone
drops
respect
decre
spots
100m
gateway
wrk23
278
277
274
485
489
481
##dhmg
finsh
nonstop
##vzdcb
285
287
289
281
344
7200
##cessible
##vbn
##vbmug
advising
palmer
##hcmug
395
##igjlzw4g
projects
497
##4gs
853
8581
##vyzsbpcyb
##ively
0044
##vcr
266
typ
##dghlihb
##dghib3
##pz25hb
443
4464
solve
##liglz
656
653
atspm
372
379
3700
grouted
botton
7119
surrounding
attempts
inaccessible
reads
4001
7319
7313
##12th
50amp
7227
7223
7214
doubt
furness
##nz2
robles
restoration
##ihrocm
##ihrozxj
buildings
remained
grant
##lbw
474
476
958
sunhill
sometime
2000
posted
4015
4010
4019
576
776
799
delcour
freight
nonexistent
##zmxhc2h
assigned
698
realignment
4059
linder
2018
speaking
guards
guardrail
continuing
positions
dedicated
##ywx
4021
4026
7309
##91bm
thurmond
encoun
horse
miscel
##hbn
##4ocd
arrived
tripping
##ihrozsbub3j
543
##zs4
##zsbsawdodcb
complain
extenders
croftwood
anchors
00525
discovery
rampart
##0bybjcm9zcyb
846
##fzdcb
signalheads
participant
00211
00202
stoplights
##dhjpz2
4078
##bwug
872
##hbmqgtw
##d2fsayb
##kgls
forestry
7205
lowered
summ
summer
summitt
##zawr
##dg8gy
bannister
43822
ember
purple
success
##nsylv
options
discussed
yards
student
patterns
richcreek
describing
framed
ignore
tenants
poorly
shadowglen
tallow
##zhadian
ideal
effected
hula
hunt
hunter
##ihjlc
##0cmlnz2
landmark
##xjl
motorists
mechanical
wolf
reduced
bushes
closures
wasted
##ppero
spares
accomac
meanwhile
daff
gardner
os2
treating
##3b3jr
exactly
##mawvs
responsible
##ihnpzgug
reattached
bedich
##3agvu
casing
neenah
strobe
intersect
fisheye
depressed
##ihr1cm5
0x000035
figure
growing
growth
##gew91
clicking
##c2lnbib
##c2lnbmfs
findings
announcement
improvements
##vkzxn0cmlhbibjcm9zc2luzyb
##idxr0b24g
dixon
family
hammer
lpis
layout
pennsylv
##c291dghib3
##axmgysb
estimate
tglnahqgyxqg
rapidly
bigger
june
melrose
rarely
##initely
shape
deactivated
24qk04
dismissal
buzzing
##dokamxmg
quadrant
restaurant
##lig9mihrozsb
consultation
designated
ls0gyxv0byb0cmfuc2xhdgvkichlbi11czt
hidden
plts
telnet
vhjhzmzpyy
##havsar
thoroughfare
heavily
selection
adams
triplex
ablanedo
busses
##abilities
collinfield
quik
sequencing
rephrase
##responsive
##aw50zxjzzwn0aw9u
headquarters
bernia
bouncing
category
ctrma
daughter
essen
elkh
elderly
fwrd
friend
ghazine
girdsmart
hospital
hampton
krieg
music
penske
triangle
tuscany
w38th
##tdxm7
##0dxju
##halfof
##1vuykgls
##z29pbmcg
onbehalfof
noticing
stnadard
cohoba
coadigital
chiappero
modern
prospect
noreply
northloop
academy
bakery
pharmacy
alpha
extender
incoming
methodist
fm1826
##bgvmdcb
sunhillow
miscellaneous
pennsylvania
##c291dghib3vuzcb
24qk04s001
vhjhzmzpyybsawdodcb
ghazinezhadian
##1vuykgls0k
0n
1am
283
3w
3x
320
326
3pm
365
4am
435
421
468
424
431
429
483
427
473
520
529
526
538
545
506
532
660
624
661
605
663
606
619
666
632
662
702
729
761
767
795
82
834
801
829
839
8pm
804
845
828
806
817
813
832
862
9am
920
924
931
925
947
938
965
933
906
975
913
940
936
949
943
ax
ak
ala
age
amer
avid
aimed
b1
bes
bun
blew
cds
c12
cement
db
ditch
dick
ddi
dress
eight
effic
egress
eag
fle
fem
feces
fried
f702
gf
gul
gust
gau
game
hal
hust
hue
hern
hero
hundred
ic
icon
ja
kor
lis
lant
latch
lady
m60
mangled
nut
nick
nice
od
ole
oro
ori
oil
odom
pp
pig
pet
pill
pry
patton
q2
qnt
rf
ren
roo
ruth
rise
rene
rhy
sq
sor
sigh
sort
sage
salv
tv
tin
tro
tit
tone
tuck
ul
v2
vine
virus
wc
wet
w15
wrote
w12th
xfer
yada
zav
zoom
##oard
##wc
##wer
##wxs
##aged
##rh
##rle
##ride
##rate
##rick
##rans
##rore
##dated
##d28
##dw5
##dmvy
##dulib
##dlcm
##lvd
##lson
##l04oczcyb
##liag
##por
##pc3r
##pdokamxmg
##ek
##ele
##ekam
##2n
##234
##211
##238
##2vj
##2sg
##iar
##iss
##iently
##iander
##ibuag
##gar
##gford
##g9u
##gwg
##g93
##nin
##nzsb
##nb3j
##nkg
##nu4oczdcb
##sa
##sca
##tg
##turn
##tured
##tig9
##tvvmpic0tc
##care
##calf
##c29
##cwg
##ctically
##crew
##ccer
##yw5k
##vet
##vac
##vld
##vity
##vens
##vds
##vsb
##vlz
##v0ag
##vlih
##5b3
##585
##589
##5vcn
##022
##0357
##0d28
##0tig9
##hch
##hmg
##hdc
##hdm
##house
##mv
##men
##mble
##mant
##minate
##mfs
##mluzyb
##myw5
##mvj
##b1
##bx
##bal
##bri
##bul
##bile
##byb
##bled
##bpy
##block
##bnr
##blies
##fac
##function
##flective
##f0aw
##809
##72
##92
##9n
##905
##914
##135
##145
##1oyw5
##6ac
##635
##xim
##xvz
##3ri
##368
##3vs
##ubs
##uiel
##ji
##jew
##jured
##jb25
##ze
##zer
##zib
##zb3
##zvcib
##zzy
##kyx
##qs
##q1
##erally
##ervice
##ined
##inates
##inium
##ala
##alds
throw
ing
injured
##orner
##orous
##ndar
##igx
##igl04oczcyb
##ties
##tions
##lating
##aneous
##anvzdcb
##enly
tool
tools
##rol
##routs
##ignyb
##ignvbm
##ignsb3
##rey
##reation
##requ
##rehouse
##utter
##utbound
##arter
##aranda
reter
reag
reoc
reangle
##athing
##atlq
##ita
##ship
##shine
##shroom
##ica
##ics
##icul
##icipal
atlan
caf
cast
cave
caugh
flas
##raid
##rayed
##ramble
noon
nelson
##ighlc
##ased
stor
stable
stores
##ights
repal
repos
repres
interim
##ckett
ped4
ped6
pedist
instruct
instersection
##estreet
force
forth
foreman
bear
beam
beau
notated
lightning
##idc
##thony
ofcr
itas
##urg
##ury
##urator
##urfac
cota
cool
coving
coff
covid
##entrate
condom
##irs
heart
outages
outdated
choo
chim
ch16
butt
upright
redid
redfield
redraw
trap
apt
apri
apts
##rip
##rial
##rihn
##ribut
##ribe
worry
soccer
soutbound
swe
swaying
comb
corssing
corresp
correction
coriander
pop
pope
polar
mooney
##merun
greater
##berry
prof
proof
proxim
##bszw
whate
nbtr
schie
norman
##andez
cctvs
seized
sept
wbfr
northridge
spi
spar
spun
spark
spray
sprouts
sprayed
fishing
fifth
acceptable
ebr
ebtr
##emont
##iliar
hasnt
##action
westview
shar
shel
shore
share
shering
sharp
shipe
##005
##009
recabling
recreation
##ustrial
dodd
dots
##taw5
##taw5n
##iable
apprec
##pleted
alle
##unci
deb
dell
deput
depleted
blub
parent
party
indu
industrial
canon
downturn
common
unw
unresponsive
anne
anthony
whenever
rodg
rolled
##ifb
##ifj
##ifrle
##110
##113
plex
0016
law
laure
standers
backside
tru
favor
356
353
3500
3515
##ront
damper
dampen
askew
aswell
verifying
website
10am
1011
1068
1047
1015
1014
1037
1010
1085
1087
1093
##luzsb
lansing
langford
186
1800
242
2407
2409
##meg
##ansion
visit
young
##ructors
##017
overhang
override
##ultaneous
constructors
##rings
##kenly
##vdx
edwards
equal
controlled
pershing
drilled
##220
##kson
##ksatlq
completing
host
holy
homerun
123
12301
grounded
167
161
faults
upset
updates
brake
afraid
tries
292
294
includes
15g
151
1500
1530
serve
save
saft
saggy
abri
ability
setback
177
1700
1701
1783
11am
1122
duct
tail
reservice
resurfac
manag
##204
warehouse
metcalf
airy
##soever
burnett
vender
452
4500
somewh
brun
brighter
dismant
sensiti
##ibg
slated
troubleshot
##mitting
client
2311
2307
2308
2314
2319
travelers
terrys
concentrate
captial
capabilities
1cs
20th
graph
morado
morgan
##poses
##ya2
##yaxmg
##yaxz
##yaw5n
5100
audios
keyb
keys
##iana
##peak
centerline
digg
digits
##dlepoint
contains
containing
##mede
paid
paper
4068
4037
4067
4040
4036
4043
748
749
7400
7411
7401
7435
7426
7438
7427
7418
7409
7406
7419
7416
7410
infrequ
infront
##217
755
757
7507
7522
7520
7521
7509
7503
7506
retrore
colony
3811
3850
scramble
scribe
##alez
notification
shortage
farther
lts
##aging
##agvh
sheathing
337
331
intesection
hillview
##ihd
##ihvz
##ihllbg
aggress
benwh
136
pressure
shoulder
refl
147
1406
7120
7129
7103
pbh
##240
##244
305
308
304
303
santa
##315
##sburg
24art411
##252
##250
play
##296
##29u
##29yb
lakeland
2120
2127
2128
fuzzy
##yb20g
resetting
resettable
pictured
menu
##ty2h
##303
quarter
##condu
catho
2201
##cmvk
##471
##473
##olas
252
2504
##640
##399
fm16
fm973
fm2222
##zw4
##zw50
johnathan
koening
oakdale
##apata
317
319
3100
##714
ridget
ridicul
malfunctions
##690
##696
template
##087
##610
##618
##614
##616
marath
waring
inputfile
tmc15
brushy
stoneleigh
##dglt
##dgvyc
##ttps
0008
00000
00008
00028
##zxn0
cradlepoint
writing
##655
##659
##656
##278
http
412
418
414
4125
4129
##bgwg
##bglrzsb
ernest
##ances
##cybh
##cybhbmqg
sitck
exterior
##bmyw
##bmv2
##bmvhc
##zsbh
useless
delayed
jacaranda
sounding
whatsoever
myself
walls
keeping
sidestreet
temporally
##lzc4g
##c2vz
##c2vk
##c2vl
##c2nob29s
december
##099
straightened
1008
wrk20
blacked
488
487
484
##dhaxqg
##royxqg
szfs
nonpeak
rockridge
##vzi
##vzm
tickets
##noaw5n
##b3vuzcb
288
342
349
feb
##632
7234
7211
7207
7239
7233
7237
7236
##hcib
literally
loadsw
390
398
walnut
##igjpa2
tilting
reinstallation
490
494
4900
yeild
##fuz
##fuzs
rm620
unsuc
unscrew
bluffstone
852
850
8501
ending
becker
hwy290
loudly
882
880
887
slower
specify
0043
00483
00441
00495
004225
##tires
steph
provides
556
553
5501
waterline
##dghvd
440
648
644
649
##lig9u
duplex
377
376
blowing
meets
tells
lyons
##0agugy
furthest
jimmy
halfway
helpful
4002
4004
7315
7317
##vuzg
screwed
regards
50pm
7307
7222
7220
7215
reaching
##yxig
##yxnoaw5n
defect
defective
definitely
majority
football
##vkcyb
director
##ihrpb
##ihrozsbsawdodcb
580
589
rudy
##0byb3
##0bhkg
behav
behalf
470
479
670
674
1059
supports
symbols
955
2001
persons
personnel
4013
572
579
7700
hhcs
##850
believed
696
desper
guidepo
4052
afternoons
basis
lined
2013
7242
7245
7240
7248
7247
7241
7246
7243
kiker
shutting
shutdown
lacking
##ha2
assemblies
4027
4023
7306
century
lenses
flipping
##pbmcgdgh
rains
explan
explor
expansion
crashed
misc
##nihn
annunci
curbline
##ihrozsbpbnrlcnnly3rpb
winn
winter
##pz2h0ig
consistent
5400
emption
jenny
##v0zw
##v0acb
##zsyxnoaw5n
stubs
stuff
study
1078
crockett
gunter
holid
jccom
sims
simultaneous
##pcybpcyb
whee
005101
fitter
fitness
00238
##ihrvig
##ihrvigdyzwvu
0800
4076
##factor
reprogramming
detailed
unbagged
870
876
fiscal
suggestion
##mgyxjl
##igfuzcb0agug
00311
persist
losing
electronics
2218
7208
7209
7203
sixth
##dwin
##dwug
##glass
monteray
monterrey
stafford
frequent
purposes
angles
003963
001824
opticon
repeats
4116
living
##formed
00147
00165
suggesting
##bsawdodc
96f22
pieces
richie
##igzyb20g
proceeded
eliminated
unplug
recognizing
describe
urine
urban
##b25k
##ignyb3nzd2fsaybzawdu
7000
battires
##b24gdghlig
##zhj
broadmoor
broadmede
increase
4096
crystalbrook
3m4
3m6
freely
huge
muniz
municipal
senor
senior
versa
identified
##axmgbm90
##axmgaxmgysb
fali
landsca
##isdiction
pullboxes
##ihbv
automatic
##ci0tig9
initial
002704
missed
##yawdpb
5009
pda
vghl
vghlihb
waste
wasting
##ywwgyxqg
##mb3igcg
##b29k
meaning
claimed
##dghligj1dhrvbib
##dghliok
ecc
matt
slee
treat
##yzwqg
##vhc3ri
##bury
##zdglsbcb
##zdg9w
comhubs
northernmost
guessing
shortened
responsive
##zg9lcyb
##ihnpz25hb
felt
fusion
houses
mushroom
wednes
##lvvt
strobing
wbrt
10901
perfect
##ub3qgdhjpz2
insufficient
stranded
##dgggc2lk
415067
##dhbgsg
reconfigured
##bukamxqgc2vl
figured
grisham
vivds
wsvcr
##ucci
00287
francia
##vbi4g
readjust
frustrating
significantly
7250
denucci
dixie
hamburg
vines
vinemont
##d2hlbib
stalled
shipment
prepared
12700
##ihdozw4g
beneficial
000126
##vbib0agugc291
##ignyb3nzaw5nigj1dhrvbib
falsely
motorcycle
motorcycles
2244
clarkson
drag
rythm
rj45
rubbing
##3ljbg
##3ljbgug
##3ywxr
##jvdw5k
##jvdwdo
reverse
example
expedite
expedited
##ldmvyignvb
factory
impedes
suppressor
suppression
##izwvu
restriping
##vb2wg
unsecure
unsecured
clarify
expressway
broadmead
broadmeade
##3b3jraw5nlibuag
gonzales
gonzalez
##ihdvcmtpbmcg
glitch
killed
mistakenly
pipes
torch
##0ahjvdwdo
##znjv
##qwxz
##igluihj
structural
rochte
##mcm9ti
editor
retrieved
scratched
##ryzwv0
000664
occasionally
grocery
battieries
##zg9lc27igjl0
wedgewood
##ncmvlbi
##nv0dg9uigrvzxnu4oczdcb
##lzgvzdhjpyw4gy3jvc3npbmcgy
9308
doris
hoping
jurisdiction
nicholas
oracle
practically
pallet
rigid
tanglebri
##d29ya2
##jb3ju
##z3jlzw4g
##zdhjlzx
inefficient
steady
swinging
greystone
seventh
canterbury
artbox
annoying
maplewood
mobilization
browser
august
disregard
capistrano
tmconfigurator
erratic
types
##zmxhc2hpbmcg
##hbmqgtw9
##dg8gy3jvc3
huntland
##0cmlnz2vy
##mawvszcb
##ihnpzgugb2yg
elkhorn
america
efficiently
eagle
huston
hernandez
lisi
lantana
orient
qnt19
roof
rhythm
sorry
tinnin
v2fsaybzawdu
zavala
##2vjdgl
##nb3jyaxmg
##bulb
##functional
##6ac1oyw5
##xvzo
##jewns
##ignsb3n
##uttering
reterminate
reagan
reoccur
atlanta
caught
reposition
representative
beauford
covington
coffee
condominium
april
##rihnpz25hb
popeyes
proximity
whatever
sheringham
deputy
downturned
rodger
##ifrlegfz
laurel
dampener
overhanging
metcalfe
somewhat
dismantled
graphics
keyboard
retroreflective
##ihllbgxvd
benwhite
##29ybmvy
catholic
fm1626
ridgetop
ridiculous
marathon
tmc15o
##dgvyc2vjdgl
##bmvhcib
loadswitch
unsuccess
unscrewed
guidepost
exploration
annunciator
##ci0tig9yawdpb
##dghligj1dhrvbibpcyb
##vhc3rib3vuzcb
wednesday
##lvvtksatlq
hamburgers
tanglebriar
##ci0tig9yawdpbmfs
039
041
0655
1g
1x
1ft
1pm
2a
2g
234
2101
264
2pm
3fp
364
327
328
4s
420
475
423
436
4amber
524
569
508
566
536
5sec
6g
6x
6sh
6ft
600
611
601
635
631
625
608
641
673
623
667
610
685
6212
707
701
771
727
7ele
8g
807
8vdc
841
815
814
873
823
848
939
918
923
985
991
ai
ah
auth
b2
bg
bs
bnd
birds
bnc
bhavsar
bvld
cow
cup
cun
crow
catch
cens
cale
cred
cio
callen
crist
crown
dn
dust
dans
die
dwy
dys
deline
drum
ea
ears
emitting
fx
fet
foo
ful
flying
gg
gor
gps
gary
glo
galv
gained
hr
hon
hen
hall
hes
hist
hant
hans
halt
honey
ie
ii
iv
ight
istre
ille
jj
kir
kip
kab
kts
kfc
kelly
lr
lc
lb
lf
larch
lub
mut
mad
mur
mem
mac
march
mass
male
mich
mask
macle
math
member
ny
nas
nur
nip
num
nature
nuts
ot
o1
oj
oas
oli
odor
otc
ovl
pt
ply
pile
pong
pric
pvc
penny
pandem
qa
q3jvc3n
rw
rp
rc
ric
ride
rect
rac
rrd
rack
rfb
rumb
sn
sou
sect
suck
sie
slice
sander
sque
skew
sier
sizes
ted
tis
tun
tint
tcm
tank
tired
tsp
tangled
vz
vig
vul
wer
wra
ward
witch
walle
wom
wich
wok
wider
x18
x10
yiel
zoo
zack
zapata
##og
##ov
##oh
##oks
##ob3
##odhr
##ovl
##oyw5k
##w8
##will
##water
##wgy
##wcm
##wbg
##wax
##wluzyb
##wcg
##wcz
##wcmvz
##aut
##ail
##aint
##a25
##r2
##r25
##rence
##rzw
##r3j
##rzig
##dn
##d3
##dz
##dly
##dged
##dag
##dwn
##dler
##db25
##d0acb
##dvb2
##lign
##lit
##lch
##low
##like
##llar
##lose
##lbm
##pv
##place
##pse
##pitch
##pple
##plic
##pine
##pdg
##pww
##pdw
##pc3
##pvbmug
##ear
##ept
##epend
##2t
##2v
##207
##201
##230
##239
##271
##233
##2ph
##2xv
##i4
##iq
##iation
##ios
##iven
##iors
##ival
##gv
##gment
##gally
##gne
##ginal
##gmail
##gade
##gc2
##gize
##gd2
##grs
##nq
##nor
##nally
##ncb
##npy
##nb2
##nzxj
